<pad>	0
<unk>	0
<s>	0
</s>	0
<nl>	0
য়	-0
▁ক	-1
ার	-2
▁ব	-3
▁আ	-4
▁ত	-5
▁স	-6
▁ম	-7
▁প	-8
▁ন	-9
ের	-10
▁দ	-11
▁হ	-12
ায়	-13
রে	-14
ান	-15
▁য	-16
▁চ	-17
লে	-18
্র	-19
▁এ	-20
▁শ	-21
▁গ	-22
▁জ	-23
িয়	-24
▁ভ	-25
ন্	-26
রা	-27
তে	-28
▁অ	-29
▁না	-30
ড়	-31
াল	-32
াঁ	-33
্য	-34
বে	-35
▁আম	-36
ির	-37
▁সে	-38
ছে	-39
িয়া	-40
ুল	-41
্ব	-42
▁ফ	-43
লা	-44
▁তো	-45
▁র	-46
াই	-47
িন	-48
ুর	-49
্ত	-50
নে	-51
▁যে	-52
▁দে	-53
▁খ	-54
কে	-55
িল	-56
াহ	-57
▁প্র	-58
য়ে	-59
▁ও	-60
ুম	-61
াস	-62
▁কে	-63
▁ধ	-64
াত	-65
ারে	-66
▁উ	-67
▁ল	-68
▁ছ	-69
াগ	-70
োর	-71
াম	-72
▁বি	-73
▁নি	-74
▁কর	-75
▁-	-76
▁তোম	-77
▁ঘ	-78
ীর	-79
াদ	-80
ন্দ	-81
নি	-82
ুক	-83
থা	-84
▁মা	-85
াব	-86
▁তার	-87
▁রা	-88
▁আমার	-89
▁আজ	-90
▁কি	-91
লি	-92
্ষ	-93
কা	-94
▁কো	-95
সে	-96
াজ	-97
▁'	-98
।।	-99
াঁদ	-100
▁বে	-101
িয়ে	-102
▁গো	-103
াও	-104
িতে	-105
র্	-106
▁আমি	-107
াণ	-108
খে	-109
▁ঝ	-110
না	-111
য়া	-112
বি	-113
ঙ্	-114
িক	-115
▁করে	-116
▁তোমার	-117
লো	-118
ানে	-119
▁আর	-120
ধু	-121
▁দু	-122
ুমি	-123
▁শু	-124
তি	-125
ছি	-126
▁রে	-127
▁ড	-128
রি	-129
▁এই	-130
্ম	-131
▁তুমি	-132
টি	-133
▁পা	-134
▁তব	-135
ায়ে	-136
খি	-137
াক	-138
▁হে	-139
ড়ে	-140
ারা	-141
▁মোর	-142
িত	-143
ষ্	-144
▁পথ	-145
গে	-146
▁মো	-147
রণ	-148
▁আস	-149
টে	-150
▁সু	-151
▁বু	-152
▁আঁ	-153
ত্য	-154
শে	-155
রু	-156
েয়ে	-157
▁মু	-158
াতে	-159
▁ফুল	-160
দি	-161
ানি	-162
▁জাগ	-163
▁সেই	-164
▁কাঁদ	-165
▁দি	-166
বার	-167
ঠে	-168
ঞ্	-169
▁বাঁ	-170
▁এক	-171
হি	-172
দের	-173
ল্	-174
ন্ত	-175
াদের	-176
হে	-177
ূপ	-178
▁যায়	-179
▁যেন	-180
বন	-181
তা	-182
শি	-183
ালা	-184
▁স্ব	-185
ড়ি	-186
্রে	-187
ক্ষ	-188
ুন	-189
দে	-190
▁মে	-191
▁সা	-192
ারি	-193
িম	-194
▁নাই	-195
▁সব	-196
▁লা	-197
▁গে	-198
▁দেখ	-199
ুঁ	-200
দিন	-201
▁নয়	-202
থে	-203
মে	-204
ূর	-205
▁পর	-206
▁(	-207
▁॥	-208
▁হয়ে	-209
ালো	-210
ঙ্গ	-211
▁তাহ	-212
▁বাজ	-213
▁শি	-214
ন্ধ	-215
▁চো	-216
▁ব্য	-217
▁প্রাণ	-218
ুলে	-219
খন	-220
▁তোর	-221
ক্ত	-222
▁করি	-223
▁কেন	-224
মন	-225
▁কা	-226
▁হয়	-227
▁ট	-228
▁ই	-229
▁নে	-230
▁মান	-231
▁খো	-232
ীন	-233
▁মন	-234
▁প্রে	-235
ন্য	-236
ালি	-237
▁ক্ষ	-238
ান্ত	-239
▁আন	-240
থায়	-241
▁ঐ	-242
▁যদি	-243
মা	-244
দ্	-245
▁!	-246
খা	-247
▁বলে	-248
▁তাই	-249
▁কু	-250
জে	-251
▁বুকে	-252
ারী	-253
▁বা	-254
▁ভা	-255
▁হায়	-256
▁শুধু	-257
ৃষ্	-258
▁কত	-259
▁চাঁদ	-260
পন	-261
েরে	-262
শ্ব	-263
িরে	-264
▁সম	-265
▁দো	-266
ুলি	-267
চে	-268
▁অভ	-269
▁গান	-270
টা	-271
▁নাম	-272
তো	-273
▁হাস	-274
▁জী	-275
াইয়া	-276
াপ	-277
▁উঠ	-278
▁নব	-279
▁মনে	-280
▁জ্ব	-281
ুষ	-282
▁প্রেম	-283
ড়া	-284
▁কোন	-285
সা	-286
ুই	-287
▁ঢ	-288
িছে	-289
জন	-290
▁আছে	-291
▁কাঁ	-292
▁ভাই	-293
শী	-294
▁খে	-295
▁পু	-296
দী	-297
▁যা	-298
▁জল	-299
▁মহ	-300
স্ত	-301
▁রূপ	-302
--	-303
ন্ধু	-304
▁আয়	-305
ুট	-306
▁থা	-307
▁ভে	-308
জা	-309
োক	-310
িনী	-311
▁চির	-312
▁ঘুম	-313
▁[	-314
▁আকা	-315
▁হবে	-316
▁এসে	-317
▁দিয়ে	-318
শা	-319
▁বন	-320
▁বল	-321
▁সক	-322
▁চাহ	-323
কি	-324
▁কার	-325
রী	-326
ঝে	-327
▁সুর	-328
▁দেখে	-329
▁আজি	-330
▁ধর	-331
িনি	-332
▁ভালো	-333
স্	-334
য়ার	-335
▁প্রিয়	-336
কার	-337
বাস	-338
নু	-339
▁যত	-340
ণ্	-341
ভু	-342
▁কথা	-343
▁চলে	-344
▁পে	-345
ঞ্জ	-346
▁ডাক	-347
▁পড়ে	-348
লাম	-349
লায়	-350
▁নাহি	-351
▁বাঁধ	-352
কো	-353
▁পূ	-354
্যাম	-355
গো	-356
▁হই	-357
ত্র	-358
দ্ধ	-359
▁নী	-360
▁মৃ	-361
▁আসে	-362
▁বুক	-363
শ্র	-364
ঙা	-365
মর	-366
ধার	-367
▁হতে	-368
▁মেঘ	-369
খের	-370
▁লো	-371
▁পথে	-372
ায়া	-373
▁জয়	-374
▁জীবন	-375
▁তা	-376
▁আঁখি	-377
তী	-378
▁ছে	-379
িবে	-380
▁ওঠে	-381
▁মি	-382
▁তারে	-383
লার	-384
▁ফে	-385
▁দিন	-386
▁চেয়ে	-387
মান	-388
গ্র	-389
দ্র	-390
▁তুই	-391
্যা	-392
বী	-393
▁পার	-394
▁গেল	-395
প্র	-396
তের	-397
▁ছি	-398
▁চরণ	-399
▁নির	-400
▁অস	-401
▁যু	-402
ণা	-403
▁শো	-404
▁দাও	-405
গ্	-406
পা	-407
পে	-408
দার	-409
ষে	-410
ুটে	-411
▁হৃ	-412
▁সাথে	-413
িয়াছে	-414
▁বেদ	-415
বা	-416
▁কাঁদে	-417
▁হার	-418
▁তারা	-419
▁মোরা	-420
নার	-421
▁আল্	-422
!'	-423
রের	-424
চ্	-425
▁এস	-426
▁ছিল	-427
▁ভয়	-428
▁আকাশ	-429
ণে	-430
▁কল	-431
▁তাঁ	-432
▁আলো	-433
ম্	-434
▁হের	-435
▁এল	-436
▁বুঝ	-437
মনি	-438
▁ওরে	-439
থি	-440
মল	-441
ছিল	-442
▁শ্যাম	-443
দয়	-444
হার	-445
▁পায়	-446
রুণ	-447
লের	-448
▁কী	-449
▁কাব	-450
▁মুক	-451
▁ওই	-452
▁বন্ধু	-453
জি	-454
▁শে	-455
▁জান	-456
▁ফিরে	-457
▁বিশ্ব	-458
▁এত	-459
▁দেব	-460
দা	-461
▁বাজে	-462
▁তবু	-463
▁ভুল	-464
▁পি	-465
ঞ্চ	-466
▁ধরে	-467
▁ঘরে	-468
▁আবার	-469
▁চায়	-470
▁নয়ন	-471
াওয়া	-472
▁তাহার	-473
▁চোখে	-474
▁জানি	-475
▁মাঝে	-476
▁হাতে	-477
তন	-478
শু	-479
▁দুর	-480
▁চল	-481
▁জন	-482
▁বস	-483
▁আমরা	-484
জ্	-485
▁সি	-486
▁হাত	-487
োঁ	-488
▁লয়ে	-489
▁ঠ	-490
▁মানুষ	-491
▁ওগো	-492
ধা	-493
▁সর	-494
▁ফির	-495
বনে	-496
▁তে	-497
▁কেঁ	-498
▁খুঁ	-499
▁আপন	-500
হু	-501
▁সুন্দ	-502
নী	-503
▁লাগ	-504
▁থ	-505
াতা	-506
্বে	-507
▁পড়	-508
▁হল	-509
্ল	-510
▁অন	-511
▁দূর	-512
ণী	-513
্রী	-514
▁লে	-515
▁যাহ	-516
▁সত্য	-517
▁মর	-518
ঙে	-519
াণী	-520
▁ভো	-521
র্ণ	-522
▁স্	-523
▁কূ	-524
মু	-525
ঙ্ক	-526
▁দিল	-527
▁বাহ	-528
▁অপ	-529
▁কাল	-530
▁দ্ব	-531
▁বলি	-532
▁মৃত্য	-533
▁অশ্র	-534
▁মোদের	-535
▁দেখি	-536
ালে	-537
▁রো	-538
▁মুখ	-539
▁চাই	-540
▁তরে	-541
▁আগ	-542
▁দেশ	-543
▁বির	-544
▁ব্যথা	-545
ীত	-546
জল	-547
▁অব	-548
তার	-549
▁কবি	-550
বাইয়া	-551
▁কান	-552
▁বো	-553
বাইয়াৎ	-554
রুবাইয়াৎ	-555
ধে	-556
▁সকল	-557
▁দেয়	-558
▁সো	-559
▁জাগে	-560
..	-561
মি	-562
হা	-563
াকে	-564
▁ভাঙ	-565
▁তাদের	-566
▁নিয়ে	-567
▁করো	-568
ীরে	-569
▁ধূ	-570
▁কেউ	-571
▁পাপ	-572
ন্দ্র	-573
▁আমায়	-574
▁কেঁদে	-575
াড়	-576
▁শত	-577
▁মতো	-578
▁স্ম	-579
▁আনন্দ	-580
্তি	-581
▁রক্ত	-582
াগর	-583
▁জে	-584
▁সহ	-585
▁মায়	-586
▁;	-587
্যো	-588
চি	-589
▁ঝরে	-590
▁কোথায়	-591
িনু	-592
হারা	-593
াতি	-594
▁বর	-595
▁বিদ	-596
▁রাখ	-597
▁কাছে	-598
▁কাজ	-599
▁আঁধার	-600
▁হোক	-601
▁শক্ত	-602
সি	-603
ুব	-604
ুরে	-605
▁অধ	-606
ানের	-607
ুণ	-608
ানা	-609
▁বাস	-610
▁জাগো	-611
ন্থ	-612
▁শূ	-613
▁যখন	-614
ৃষ্টি	-615
▁যারা	-616
▁কোন্	-617
▁তোমায়	-618
াবি	-619
▁জানে	-620
▁যার	-621
▁ভি	-622
▁পুর	-623
▁হৃদয়	-624
ন্ম	-625
ানো	-626
▁ভুলে	-627
ধুর	-628
▁হি	-629
▁একা	-630
▁পানে	-631
▁জড়	-632
▁করিয়া	-633
্রো	-634
▁কাব্য	-635
▁কভু	-636
▁এসো	-637
▁ভার	-638
▁পারে	-639
▁বুকের	-640
টির	-641
য়াম	-642
▁তোমারে	-643
▁উদ	-644
ক্ষে	-645
▁বাদ	-646
▁পেয়ে	-647
▁সুন্দর	-648
▁বন্দ	-649
ষাণ	-650
▁রু	-651
▁শা	-652
▁ভাস	-653
▁অশ্রু	-654
ৃত	-655
ন্ন	-656
িলে	-657
▁সাধ	-658
জর	-659
▁জলে	-660
বির	-661
বের	-662
▁মম	-663
▁গাহ	-664
▁মিল	-665
▁ডাকে	-666
▁গগ	-667
▁পরে	-668
▁পায়ে	-669
প্ত	-670
▁লুক	-671
▁শূন্য	-672
োল	-673
▁বীর	-674
▁মৃত্যু	-675
কুল	-676
▁পাই	-677
▁জো	-678
▁রাঙা	-679
ধূ	-680
▁কেহ	-681
থার	-682
▁খৈ	-683
▁নীল	-684
▁খৈয়াম	-685
ষা	-686
▁দুঃ	-687
▁নদী	-688
▁কোথা	-689
▁ভালোবাস	-690
দল	-691
ভে	-692
িরি	-693
ঙ্গে	-694
▁থাক	-695
▁দুল	-696
▁সেদিন	-697
▁এমন	-698
▁মোরে	-699
▁ঘন	-700
▁তর	-701
▁সাজ	-702
▁অন্ত	-703
▁এবার	-704
পথ	-705
ণ্ড	-706
▁আত	-707
▁বাণী	-708
▁মুখে	-709
▁সর্ব	-710
▁হাসি	-711
**	-712
ওমর	-713
সুম	-714
▁চে	-715
▁সং	-716
▁শুনি	-717
▁শান্ত	-718
▁বিদায়	-719
হীন	-720
▁অম	-721
▁ফো	-722
য়ান	-723
▁দাঁ	-724
▁ধরা	-725
▁বনে	-726
▁রাজ	-727
▁এলে	-728
▁যেতে	-729
▁স্বর্	-730
নের	-731
রাজ	-732
▁বৃ	-733
▁মালা	-734
▁দিয়া	-735
খী	-736
কের	-737
র্ম	-738
▁অভিম	-739
▁জ্যো	-740
▁তাঁর	-741
▁চোখের	-742
▁আমাদের	-743
▁কাব্যগ্র	-744
▁।	-745
▁দী	-746
▁পাত	-747
▁শুক	-748
▁বুঝি	-749
ণি	-750
----	-751
ছু	-752
▁চলি	-753
▁কোনো	-754
▁পথের	-755
▁ফুলের	-756
সু	-757
োহ	-758
ত্ত	-759
▁গা	-760
▁উঠে	-761
▁ওরা	-762
▁মরু	-763
▁কাব্যগ্রন্থ	-764
▁ঘর	-765
▁বেঁ	-766
িয়ার	-767
▁আশ	-768
▁কাহ	-769
▁ক্ষু	-770
▁উপ	-771
▁যাই	-772
▁ঈ	-773
▁বিরহ	-774
িক্ষ	-775
▁বড়	-776
▁কালো	-777
রূপ	-778
▁গ্র	-779
▁মাত	-780
ড়ায়	-781
▁তরুণ	-782
▁নিশী	-783
পার	-784
▁রস	-785
িনা	-786
▁দিলে	-787
▁পাখি	-788
__	-789
শির	-790
▁শির	-791
▁নিত্য	-792
সী	-793
▁রঙ	-794
▁পরি	-795
▁বারে	-796
▁আল্লা	-797
▁আগে	-798
▁হলো	-799
দম	-800
বল	-801
▁নিশি	-802
বর	-803
▁ঊ	-804
▁আল	-805
▁যবে	-806
▁দুলে	-807
▁কুসুম	-808
▁"	-809
চ্ছ	-810
▁পরম	-811
চার	-812
ীতি	-813
▁নহে	-814
▁মার	-815
▁লাল	-816
ক্	-817
▁হা	-818
▁বিষ	-819
▁যাও	-820
▁গেছে	-821
▁প্রভ	-822
নো	-823
▁কাম	-824
▁দিব	-825
▁অন্ধ	-826
▁পথিক	-827
ধি	-828
খিল	-829
তলে	-830
বান	-831
য়ো	-832
▁জু	-833
▁মদ	-834
▁ভরে	-835
য়ায়	-836
ুরি	-837
▁ঝড়	-838
▁মরি	-839
▁তোরা	-840
▁পাষাণ	-841
▁বাঁশি	-842
▁শক্তি	-843
্ন	-844
াসে	-845
▁যৌ	-846
ন্দন	-847
▁দুন	-848
▁ফুট	-849
▁ছুটে	-850
িয়াছি	-851
▁চাঁদের	-852
▁প্রিয়া	-853
হর	-854
ীর্	-855
▁ঢে	-856
▁দল	-857
▁ভাব	-858
▁.	-859
দীপ	-860
▁ত্র	-861
▁দান	-862
▁বাত	-863
▁মনের	-864
ূরে	-865
▁ঝর	-866
▁কোলে	-867
▁দোলে	-868
▁বন্ধ	-869
▁সাগর	-870
▁সেথা	-871
কু	-872
▁অভি	-873
▁শেষ	-874
▁কূলে	-875
▁তারি	-876
ষ্ঠ	-877
▁নিখিল	-878
সম	-879
▁এরা	-880
▁তখন	-881
▁দেখা	-882
▁শ্র	-883
▁আত্ম	-884
▁ফেলে	-885
▁লাগে	-886
তর	-887
োগ	-888
খির	-889
▁মহা	-890
িব	-891
মনে	-892
▁গু	-893
▁নত	-894
▁ভর	-895
িকার	-896
ৃষ্ণ	-897
▁কণ্	-898
▁ধরণ	-899
▁পান	-900
▁হরি	-901
▁জেগে	-902
শোর	-903
▁পদ	-904
▁মরে	-905
▁হেথা	-906
ীম	-907
▁থাকে	-908
▁অনু	-909
▁চোখ	-910
▁মরণ	-911
▁উদাস	-912
▁দেশে	-913
▁যাবে	-914
',	-915
তল	-916
জয়	-917
▁বিধ	-918
▁নাচে	-919
▁ছায়া	-920
▁কই	-921
▁চুম	-922
▁নাকো	-923
▁সন্ধ	-924
সের	-925
ুরু	-926
ুলব	-927
▁ভু	-928
▁খোঁ	-929
▁সাঁ	-930
▁আল্লার	-931
িতা	-932
▁দর	-933
▁যাব	-934
▁তায়	-935
▁যৌবন	-936
▁রাতে	-937
▁খোদার	-938
চা	-939
বু	-940
ভূ	-941
শ্	-942
ওয়	-943
শের	-944
▁মধু	-945
▁রবি	-946
▁লুট	-947
▁দিতে	-948
▁স্বর্গ	-949
্যে	-950
▁অনে	-951
▁কখন	-952
▁আমারে	-953
▁বক্ষে	-954
▁বেদনা	-955
▁:	-956
ঞ্চল	-957
▁ছেলে	-958
▁পারি	-959
▁ফুলে	-960
্ঞ	-961
▁শুভ	-962
লিয়া	-963
▁সুরে	-964
▁হেসে	-965
ভি	-966
▁গর	-967
▁বিপ	-968
ৃতি	-969
▁হো	-970
▁ফেরে	-971
▁যুগে	-972
▁শুনে	-973
▁মুক্ত	-974
▁হইয়া	-975
্গ	-976
ালী	-977
▁থে	-978
▁এলো	-979
▁নীর	-980
▁কেমন	-981
দীর	-982
ভরা	-983
▁ছল	-984
▁নর	-985
▁কয়	-986
▁কিছু	-987
▁স্বপ	-988
ইয়া	-989
▁আজও	-990
▁গাঁ	-991
▁লক্ষ	-992
▁প্রেমের	-993
দুল	-994
লয়	-995
▁বঁ	-996
▁এনে	-997
▁সখি	-998
▁হেরি	-999
▁জগ	-1000
▁তত	-1001
▁বলো	-1002
▁নারী	-1003
▁সৃষ্টি	-1004
বো	-1005
্ড	-1006
▁রণ	-1007
▁জ্ঞ	-1008
▁মাগ	-1009
▁মোহ	-1010
▁আগুন	-1011
▁বনের	-1012
▁রই	-1013
▁দুই	-1014
▁অনেক	-1015
▁মায়ের	-1016
▁ভূ	-1017
▁স্ত	-1018
▁চাহে	-1019
▁১	-1020
▁ভগ	-1021
খানে	-1022
খায়	-1023
▁কোর	-1024
▁নাচ	-1025
▁নিজ	-1026
▁মতন	-1027
▁প্রথ	-1028
▁দাঁড়	-1029
▁হয়তো	-1030
িনে	-1031
ুটি	-1032
▁আসি	-1033
▁বাল	-1034
টু	-1035
ণু	-1036
র্ধ	-1037
ছিলে	-1038
▁দেহ	-1039
▁রবে	-1040
▁শুন	-1041
▁এমনি	-1042
▁দুঃখ	-1043
▁ভেঙে	-1044
▁রাখি	-1045
▁নয়নে	-1046
▁স্বপন	-1047
জ্ঞ	-1048
তির	-1049
াকি	-1050
▁ধরি	-1051
▁হাঁ	-1052
▁নতুন	-1053
▁সহসা	-1054
▁তোমরা	-1055
▁পূর্ণ	-1056
▁মেয়ে	-1057
ভা	-1058
শান	-1059
▁ডে	-1060
▁ভিক্ষ	-1061
▁সোনার	-1062
।'	-1063
তম	-1064
িজ	-1065
ানী	-1066
▁চু	-1067
▁রহ	-1068
▁আশা	-1069
▁মুস	-1070
▁লাগি	-1071
▁শিশু	-1072
▁আকাশে	-1073
▁জ্বাল	-1074
▁মায়া	-1075
দর	-1076
পি	-1077
পুর	-1078
▁শর	-1079
ারাব	-1080
▁ক্র	-1081
▁ব্র	-1082
▁দূরে	-1083
ষণ	-1084
েরা	-1085
▁কপ	-1086
▁তৃ	-1087
▁সই	-1088
মের	-1089
▁দলে	-1090
▁নিরা	-1091
▁রূপে	-1092
ড়িয়া	-1093
িয়ায়	-1094
▁খু	-1095
▁বী	-1096
াড়ি	-1097
▁কবে	-1098
▁কমল	-1099
িতেছে	-1100
▁কোটি	-1101
▁খেলা	-1102
▁কাঁদি	-1103
▁প্রতি	-1104
তু	-1105
পল	-1106
পী	-1107
হ্	-1108
মার	-1109
স্ব	-1110
▁আঁচ	-1111
▁দীপ	-1112
▁পাল	-1113
▁বসে	-1114
▁করুণ	-1115
▁নামে	-1116
▁বেহে	-1117
▁প্রথম	-1118
▁প্রাণের	-1119
নায়	-1120
▁খুন	-1121
▁সুদ	-1122
▁মন্দ	-1123
▁কাহার	-1124
▁পুরুষ	-1125
▁প্রভু	-1126
▁বেঁধে	-1127
গ্ধ	-1128
সার	-1129
ামা	-1130
▁আপ	-1131
▁ঘো	-1132
ূর্য	-1133
▁গানের	-1134
▁দেশের	-1135
পর	-1136
বীর	-1137
▁ছো	-1138
▁হর	-1139
্বনি	-1140
▁আনি	-1141
▁আনো	-1142
▁গগন	-1143
▁চাও	-1144
▁জোর	-1145
▁নার	-1146
▁অনন্ত	-1147
▁কিশোর	-1148
▁]	-1149
ময়	-1150
লাপ	-1151
▁পৃ	-1152
▁সাম	-1153
▁খুঁজ	-1154
▁যেমন	-1155
▁রেখে	-1156
ৎস	-1157
িয়ো	-1158
▁ধ্য	-1159
▁ভেসে	-1160
▁শ্রী	-1161
▁পিয়া	-1162
▁শান্তি	-1163
কল	-1164
▁তু	-1165
ালের	-1166
▁তুলে	-1167
▁মানব	-1168
▁সবাই	-1169
▁আঁখির	-1170
▁আসিবে	-1171
▁নিশীথ	-1172
খার	-1173
ল্ল	-1174
▁ঘোর	-1175
▁ছিঁ	-1176
▁পরা	-1177
▁পাগ	-1178
▁সাহ	-1179
▁জন্ম	-1180
▁ধূলি	-1181
▁সারা	-1182
▁খেয়ে	-1183
▁দেবতা	-1184
▁স্মৃতি	-1185
কূ	-1186
ছল	-1187
জো	-1188
জার	-1189
দেশ	-1190
মকে	-1191
▁চিত	-1192
▁অস্ত	-1193
▁পরান	-1194
▁স্নে	-1195
▁স্রো	-1196
▁জ্বালা	-1197
ট্	-1198
▁কহ	-1199
▁অর্	-1200
▁তবে	-1201
▁যুগ	-1202
▁রয়	-1203
▁রহি	-1204
▁ডেকে	-1205
▁পূজা	-1206
▁প্রণ	-1207
▁ফোটে	-1208
▁বেলা	-1209
▁ভয়ে	-1210
▁এসেছে	-1211
▁কৃষ্ণ	-1212
ংস	-1213
াচ	-1214
▁*	-1215
ভীর	-1216
▁ছুঁ	-1217
▁দোল	-1218
▁মধুর	-1219
▁কেমনে	-1220
▁ভ্র	-1221
▁মাল	-1222
▁বঁধু	-1223
▁তেমনি	-1224
ান্	-1225
▁অশ	-1226
▁আজো	-1227
▁ঢেউ	-1228
▁ফাঁ	-1229
▁ভীর	-1230
▁থেকে	-1231
▁হাসে	-1232
▁গেয়ে	-1233
▁তোদের	-1234
সর	-1235
াদা	-1236
ামী	-1237
গ্নি	-1238
ন্দু	-1239
হায়	-1240
▁আসিল	-1241
▁ঊর্ধ	-1242
▁ধর্ম	-1243
▁গিয়ে	-1244
▁শারাব	-1245
ঘাত	-1246
▁আঙ	-1247
▁দশ	-1248
▁এখন	-1249
▁কদম	-1250
▁সুখ	-1251
হাদের	-1252
▁তোরে	-1253
▁নির্	-1254
▁পৃথি	-1255
▁বুলব	-1256
▁সিন্ধু	-1257
পথে	-1258
শেষ	-1259
িয়াছ	-1260
▁দিকে	-1261
▁নদীর	-1262
▁শেষে	-1263
▁হাওয়া	-1264
থী	-1265
জলে	-1266
্বল	-1267
ূপুর	-1268
▁তুল	-1269
▁গিরি	-1270
▁গেলে	-1271
▁ধরার	-1272
!!	-1273
ৈর	-1274
ন্যা	-1275
াড়া	-1276
▁উড়	-1277
▁দিগ	-1278
▁গ্রহ	-1279
▁চাহি	-1280
▁পড়ি	-1281
কী	-1282
ণ্য	-1283
লমল	-1284
▁কেবল	-1285
▁ছন্দ	-1286
▁ডাকি	-1287
▁করিতে	-1288
▁মাটির	-1289
▁দ্বারে	-1290
?'	-1291
ক্র	-1292
লিম	-1293
্মী	-1294
▁অল	-1295
▁জাত	-1296
▁শ্ম	-1297
▁হলে	-1298
▁অনুরা	-1299
▁জীবনে	-1300
▁জ্বলে	-1301
▁সূর্য	-1302
জ্জ	-1303
স্ম	-1304
▁কুম	-1305
▁ফের	-1306
▁যোগ	-1307
▁উঠিল	-1308
▁বেহেশ	-1309
▁ভগবান	-1310
মো	-1311
ভার	-1312
ষ্ট	-1313
স্য	-1314
▁আব	-1315
▁ডু	-1316
▁লি	-1317
▁একে	-1318
▁ডুব	-1319
▁পুন	-1320
▁অরুণ	-1321
▁একটি	-1322
▁সুখে	-1323
দু	-1324
মালা	-1325
িক্ত	-1326
▁নজর	-1327
▁ভাগ	-1328
▁করেছে	-1329
▁ভিক্ষা	-1330
্থ	-1331
ঙ্খ	-1332
ম্ব	-1333
▁ঠে	-1334
▁মৌ	-1335
▁হু	-1336
▁ভোর	-1337
▁কাজল	-1338
▁বাঁচ	-1339
▁অগ্নি	-1340
▁রূপের	-1341
▁মুক্তি	-1342
▁তোমাদের	-1343
▁?	-1344
ব্য	-1345
পারে	-1346
ল্লা	-1347
ূর্ণ	-1348
▁বার	-1349
▁শিব	-1350
▁সার	-1351
ন্ত্র	-1352
ালিকা	-1353
▁ভীরু	-1354
▁বিপুল	-1355
▁কাঁদিয়া	-1356
খো	-1357
ফিজ	-1358
রণে	-1359
াসী	-1360
ধারে	-1361
▁সবে	-1362
▁তারই	-1363
▁পাশে	-1364
▁স্নেহ	-1365
▁হিয়া	-1366
▁জ্যোতি	-1367
▁বেড়ায়	-1368
,-	-1369
যু	-1370
শ্চ	-1371
াকা	-1372
মায়	-1373
য়ের	-1374
▁কাঁপ	-1375
গর	-1376
দন	-1377
▁জি	-1378
****	-1379
▁গলে	-1380
▁আকুল	-1381
▁ভারত	-1382
▁চন্দ্র	-1383
▁প্রাণে	-1384
▁তাহাদের	-1385
ষি	-1386
ফুল	-1387
▁সৃ	-1388
▁পলা	-1389
▁ময়	-1390
▁উড়ে	-1391
▁গায়	-1392
▁গোপন	-1393
▁বাঁশ	-1394
▁কণ্ঠে	-1395
▁নূপুর	-1396
থাই	-1397
্মা	-1398
্লা	-1399
ছায়	-1400
ন্তু	-1401
▁আছি	-1402
▁উঠল	-1403
▁কন্	-1404
▁গোপ	-1405
▁ছড়	-1406
▁ফাগ	-1407
▁বাং	-1408
▁মহি	-1409
▁জীবনের	-1410
ঠা	-1411
থর	-1412
▁সও	-1413
াত্র	-1414
▁কাট	-1415
▁কুল	-1416
▁গুল	-1417
▁তনু	-1418
▁বিল	-1419
▁মুর	-1420
▁রাত	-1421
▁ললা	-1422
▁শাস	-1423
▁হান	-1424
▁অমৃত	-1425
▁ওদের	-1426
▁চিনি	-1427
▁তীরে	-1428
▁নিতি	-1429
▁বাঁধন	-1430
▁সুদূর	-1431
চো	-1432
হী	-1433
াধ	-1434
কাল	-1435
মাল	-1436
রাব	-1437
রাম	-1438
▁আহ	-1439
▁চি	-1440
▁হও	-1441
▁হত	-1442
▁ভাবে	-1443
▁জ্ঞান	-1444
▁নজরুল	-1445
▁প্রলয়	-1446
গণ	-1447
রো	-1448
ড়ো	-1449
ামে	-1450
▁কৃ	-1451
▁মত	-1452
বাসী	-1453
লিতে	-1454
▁দুখ	-1455
▁পাহ	-1456
▁কারে	-1457
▁গভীর	-1458
▁যারে	-1459
▁যাহা	-1460
▁হানে	-1461
▁হয়েছে	-1462
শন	-1463
...	-1464
ৃত্য	-1465
▁ত্য	-1466
▁নেই	-1467
▁ভরি	-1468
▁মিথ	-1469
▁অঙ্গ	-1470
▁মিলন	-1471
▁আপনার	-1472
▁ক্ষণে	-1473
▁অভিমান	-1474
লী	-1475
বাদ	-1476
▁নও	-1477
▁নূ	-1478
▁ভী	-1479
খানি	-1480
ঙ্গা	-1481
াইতে	-1482
▁ছুট	-1483
▁ধুল	-1484
▁জাগি	-1485
▁পেতে	-1486
▁হইতে	-1487
▁করিবে	-1488
দ্ব	-1489
েরি	-1490
▁ইস	-1491
▁কহে	-1492
▁জনম	-1493
▁বাব	-1494
▁যাঁ	-1495
▁হাজ	-1496
▁খুলে	-1497
▁ফুটে	-1498
▁বাদল	-1499
▁বায়	-1500
▁ভুলি	-1501
▁ছেড়ে	-1502
▁মেঘের	-1503
▁কিন্তু	-1504
▁তাহারে	-1505
▁প্রদীপ	-1506
▁ঊর্ধ্বে	-1507
লাস	-1508
▁ধে	-1509
____	-1510
▁হাও	-1511
▁আসবে	-1512
▁একটু	-1513
▁ঘরের	-1514
▁ভেবে	-1515
▁শোনো	-1516
▁কাঁপে	-1517
▁চঞ্চল	-1518
▁যেদিন	-1519
▁সুরের	-1520
কর	-1521
টো	-1522
গের	-1523
শুর	-1524
▁গৃ	-1525
শায়	-1526
▁চল্	-1527
▁তিম	-1528
▁পাঁ	-1529
▁বহে	-1530
▁বিশ	-1531
▁গগনে	-1532
▁চরণে	-1533
▁থাকি	-1534
▁দুর্	-1535
▁নারি	-1536
▁ভুবন	-1537
▁কলঙ্ক	-1538
▁খুঁজি	-1539
▁ব্যথার	-1540
▁ব্যথায়	-1541
টুক	-1542
দান	-1543
লোক	-1544
তারা	-1545
ত্রি	-1546
াণ্ড	-1547
▁ভরা	-1548
▁শয়	-1549
▁শ্ব	-1550
ৃষ্ণা	-1551
্যায়	-1552
▁দুটি	-1553
▁পাগল	-1554
▁বড়ো	-1555
▁সাঁঝ	-1556
বেলায়	-1557
▁উঠেছে	-1558
▁দিনের	-1559
▁লইয়া	-1560
▁মানুষের	-1561
▁প্রিয়তম	-1562
'।	-1563
শো	-1564
কাশ	-1565
িল্	-1566
▁মূ	-1567
টায়	-1568
ত্যা	-1569
▁কূল	-1570
▁চপল	-1571
▁রাঙ	-1572
▁হিম	-1573
▁খায়	-1574
▁দিনে	-1575
▁বারি	-1576
▁খুঁজে	-1577
▁প্রভাত	-1578
ংহ	-1579
পু	-1580
গ্ন	-1581
টের	-1582
সনে	-1583
▁কও	-1584
▁মধ	-1585
▁আনে	-1586
▁আরো	-1587
▁ছোঁ	-1588
▁লোক	-1589
▁অসীম	-1590
▁আঁচল	-1591
▁ডুবে	-1592
▁নবীন	-1593
▁বাতাস	-1594
--------	-1595
আঁ	-1596
ব্	-1597
ৌর	-1598
ষের	-1599
▁চা	-1600
▁দৈ	-1601
▁লী	-1602
তায়	-1603
▁কুঁ	-1604
▁গীত	-1605
▁গোর	-1606
▁সাত	-1607
াত্রী	-1608
▁এদের	-1609
▁গন্ধ	-1610
▁মেরে	-1611
▁যাহার	-1612
▁রুদ্র	-1613
সুর	-1614
িমা	-1615
িলি	-1616
্মদ	-1617
▁বহ	-1618
▁মল	-1619
▁ছিলে	-1620
▁দেবে	-1621
▁নেমে	-1622
▁পেলে	-1623
▁লেখা	-1624
▁সঙ্গ	-1625
▁কাঁটা	-1626
▁হাতের	-1627
▁পৃথিবী	-1628
▁দুনিয়া	-1629
বাগ	-1630
শার	-1631
াহে	-1632
ীতে	-1633
▁এর	-1634
▁হব	-1635
ড়াল	-1636
▁মাধ	-1637
▁হৃদ	-1638
▁তুলি	-1639
▁নূতন	-1640
▁রাজা	-1641
▁প্রেমে	-1642
▁বেদনার	-1643
টার	-1644
ণিক	-1645
▁ওঠ	-1646
▁পো	-1647
টিতে	-1648
▁কর্	-1649
▁পরশ	-1650
▁পাও	-1651
▁লাজ	-1652
▁অসুর	-1653
▁আঘাত	-1654
▁খালে	-1655
▁রাতি	-1656
▁লেগে	-1657
▁সময়	-1658
▁গোলাপ	-1659
▁পুণ্য	-1660
গান	-1661
▁ঘা	-1662
বারি	-1663
লোকে	-1664
্লান	-1665
▁অবি	-1666
▁অমর	-1667
▁ঝরি	-1668
▁বিহ	-1669
য়ারে	-1670
▁ছাড়	-1671
▁তাহা	-1672
▁পাবে	-1673
▁কাঁদন	-1674
▁দ্বার	-1675
▁ধরায়	-1676
▁আকাশের	-1677
'-	-1678
উল	-1679
বাহ	-1680
ভয়	-1681
ষ্ক	-1682
ওয়া	-1683
ছিনু	-1684
দেশে	-1685
ুক্ত	-1686
▁বাণ	-1687
▁সদা	-1688
▁অমনি	-1689
▁কানন	-1690
▁পাতা	-1691
▁পুষ্	-1692
▁হেরে	-1693
▁অপরূপ	-1694
▁সকলের	-1695
▁মুসলিম	-1696
▁গিয়াছে	-1697
জুর	-1698
▁নৌ	-1699
▁আদি	-1700
▁কহি	-1701
▁পূজ	-1702
▁শশী	-1703
▁শোক	-1704
দ্রোহ	-1705
শ্বাস	-1706
▁আপনি	-1707
▁করতে	-1708
▁খেলে	-1709
▁অন্তর	-1710
▁এসেছি	-1711
▁রাতের	-1712
▁দেখিতে	-1713
▁যাহারা	-1714
ভী	-1715
ভাগ	-1716
য়ী	-1717
াঁই	-1718
োয়	-1719
▁বৈ	-1720
ড়ির	-1721
ন্দর	-1722
▁ঝরা	-1723
▁তাজ	-1724
ধ্বনি	-1725
হাফিজ	-1726
▁গাহে	-1727
▁তিনি	-1728
▁নিজে	-1729
▁ক্ষমা	-1730
▁তিমির	-1731
▁বন্দি	-1732
▁বাজায়	-1733
ঝর	-1734
ঠি	-1735
হল	-1736
াদল	-1737
▁বজ	-1738
▁লহ	-1739
▁সৈ	-1740
াতুর	-1741
্যাণ	-1742
▁ঘুর	-1743
▁চাপ	-1744
▁তরু	-1745
▁পাব	-1746
▁মরা	-1747
▁বক্ষ	-1748
▁ভাঙা	-1749
▁শত্র	-1750
▁নিয়া	-1751
▁মানিক	-1752
▁নিশীথে	-1753
▁প্রায়	-1754
▁শ্রান্ত	-1755
কুম	-1756
জের	-1757
বেশ	-1758
রাধ	-1759
ষার	-1760
্না	-1761
▁অতি	-1762
▁তরী	-1763
▁দীন	-1764
▁যাক	-1765
▁হইল	-1766
▁হুর	-1767
▁নেচে	-1768
▁বিরা	-1769
▁ভক্ত	-1770
▁সবার	-1771
▁সাকি	-1772
▁ধ্যান	-1773
▁মুকুল	-1774
▁হাজার	-1775
▁ধরিয়া	-1776
▁মিথ্যা	-1777
▁অভিমানে	-1778
পো	-1779
কান	-1780
জনে	-1781
পাত	-1782
লিত	-1783
স্থ	-1784
ড়ার	-1785
দিনে	-1786
বালা	-1787
মুনা	-1788
▁দিও	-1789
▁বহু	-1790
▁শোন	-1791
▁সাগ	-1792
▁অগ্র	-1793
▁আলোক	-1794
▁গানে	-1795
▁ত্রি	-1796
▁পল্ল	-1797
▁মলিন	-1798
▁আজিকে	-1799
▁খোঁজে	-1800
▁আনন্দে	-1801
▁ছিঁড়ে	-1802
▁পাপিয়া	-1803
▁সন্ধ্যা	-1804
▁ভালোবাসা	-1805
গাত	-1806
▁আছ	-1807
ধারা	-1808
ধূলি	-1809
ন্দে	-1810
বেলা	-1811
শিখা	-1812
ীর্ণ	-1813
▁থাম	-1814
▁দাম	-1815
▁ভিখ	-1816
▁অন্ন	-1817
▁নিমে	-1818
▁পদ্ম	-1819
▁ফিরি	-1820
▁ইসলাম	-1821
▁করেছি	-1822
▁তাঁহার	-1823
▁প্রিয়ার	-1824
গা	-1825
ভো	-1826
▁আধ	-1827
রাঙা	-1828
▁খুল	-1829
▁চাঁ	-1830
▁ঝাঁ	-1831
▁পাঠ	-1832
▁মাঝ	-1833
▁হাল	-1834
▁অভিশ	-1835
▁টলমল	-1836
▁নিতে	-1837
▁মানে	-1838
▁বাঁধা	-1839
▁বেয়ে	-1840
▁রাজার	-1841
▁দেখেছি	-1842
▁সেথায়	-1843
▁হৃদয়ে	-1844
▁ক্রন্দন	-1845
ঘন	-1846
চিত	-1847
সাদ	-1848
▁চম	-1849
▁মস	-1850
ঙ্কা	-1851
ঞ্জে	-1852
পাতে	-1853
বেসে	-1854
শেষে	-1855
▁অতী	-1856
▁ছলে	-1857
▁টান	-1858
▁দিক	-1859
▁জাতি	-1860
▁ঠাঁই	-1861
▁পানি	-1862
▁বেণু	-1863
▁মাঠে	-1864
ায়েছে	-1865
▁নামের	-1866
▁যুদ্ধ	-1867
▁তৃষ্ণা	-1868
▁পাহাড়	-1869
হন	-1870
ূত	-1871
ূল	-1872
াবে	-1873
কূলে	-1874
গুলি	-1875
▁গৃহ	-1876
▁ঝুম	-1877
▁তাপ	-1878
ঞ্জলি	-1879
পিয়া	-1880
▁অন্য	-1881
▁উদয়	-1882
▁একলা	-1883
▁কুহু	-1884
▁খোলো	-1885
▁গীতি	-1886
▁ঘিরে	-1887
▁টানে	-1888
▁বজ্র	-1889
▁বিনা	-1890
▁ভীষণ	-1891
▁আসিলে	-1892
▁পুত্র	-1893
▁বন্ধন	-1894
▁বাহির	-1895
▁অন্তরে	-1896
▁জোয়ার	-1897
▁দুয়ার	-1898
▁পায়ের	-1899
▁শ্যামা	-1900
▁লক্ষ্মী	-1901
▁হাওয়ায়	-1902
আর	-1903
জান	-1904
শাহ	-1905
াসি	-1906
▁চক	-1907
▁বধ	-1908
নারী	-1909
্যের	-1910
▁খেল	-1911
▁চার	-1912
▁দিই	-1913
▁বসি	-1914
▁শীত	-1915
▁আজিও	-1916
▁টুটে	-1917
▁ধন্য	-1918
▁মেঘে	-1919
▁শরাব	-1920
▁শিরে	-1921
▁খালেদ	-1922
▁মোহাম	-1923
▁শিশির	-1924
▁আপনারে	-1925
▁তাহারা	-1926
▁সর্বনা	-1927
▁নিশিদিন	-1928
পদ	-1929
ফে	-1930
গুল	-1931
ঠাৎ	-1932
তুল	-1933
্বর	-1934
▁দখ	-1935
▁ফর	-1936
চারী	-1937
ড়িত	-1938
বারে	-1939
ষ্টি	-1940
াধীন	-1941
▁আদর	-1942
▁গাই	-1943
▁ভৈর	-1944
▁অবহে	-1945
▁কালি	-1946
▁ঘুরে	-1947
▁নিবি	-1948
▁বয়ে	-1949
▁বর্ষ	-1950
▁বেড়	-1951
▁মরুর	-1952
▁সাথী	-1953
জোয়ান	-1954
ৃষ্টির	-1955
▁কামাল	-1956
▁ছেয়ে	-1957
▁বিজয়	-1958
▁যাদের	-1959
▁তোমারি	-1960
▁বাংলার	-1961
▁বাহিরে	-1962
▁বুলবুল	-1963
▁হেথায়	-1964
▁অনুরাগে	-1965
▁জ্যোতির	-1966
▁মৃত্যুর	-1967
এর	-1968
ঝা	-1969
আমি	-1970
কির	-1971
তাম	-1972
াস্	-1973
েরই	-1974
▁বছ	-1975
কারে	-1976
দিকে	-1977
াকার	-1978
াবার	-1979
ালাম	-1980
ুড়ি	-1981
্যাং	-1982
▁ঠোঁ	-1983
▁ধ্ব	-1984
▁ফেল	-1985
▁বিজ	-1986
▁কবির	-1987
▁বকুল	-1988
▁ভাষা	-1989
▁লীলা	-1990
▁লোকে	-1991
▁হঠাৎ	-1992
▁কবিতা	-1993
▁দুর্গ	-1994
▁শাড়ি	-1995
▁দুরন্ত	-1996
▁শ্যামল	-1997
▁জড়ায়ে	-1998
▁হারিয়ে	-1999
!-	-2000
গী	-2001
োধ	-2002
নিক	-2003
বিহ	-2004
চ্ছে	-2005
▁গুম	-2006
▁তলে	-2007
▁তুফ	-2008
▁শহী	-2009
▁শিক	-2010
▁সজল	-2011
ারিণী	-2012
▁কারা	-2013
▁নাকি	-2014
▁মঞ্জ	-2015
▁মসজি	-2016
▁মাথা	-2017
▁সন্ত	-2018
▁সৃজন	-2019
▁ছাড়া	-2020
▁বৃথাই	-2021
▁ম্লান	-2022
▁যমুনা	-2023
▁হাসির	-2024
▁স্বপনে	-2025
▁চাহিয়া	-2026
টল	-2027
দো	-2028
সল	-2029
নির	-2030
হাগ	-2031
ুণা	-2032
গ্রহ	-2033
টুকু	-2034
▁আরব	-2035
▁ক্ল	-2036
▁নিভ	-2037
▁পেল	-2038
▁বধূ	-2039
ন্দাব	-2040
ালায়	-2041
▁কোরা	-2042
▁গুরু	-2043
▁নীরব	-2044
▁পিয়	-2045
▁বাতি	-2046
▁মাতা	-2047
▁গায়ে	-2048
▁চিত্ত	-2049
▁প্রাচ	-2050
▁ফাগুন	-2051
▁সওগাত	-2052
▁অশান্ত	-2053
▁ইহাদের	-2054
▁ঘুমায়	-2055
▁রাত্রি	-2056
▁কাঁদিছে	-2057
▁প্রভাতে	-2058
▁ফিরিয়া	-2059
▁ভালোবেসে	-2060
চর	-2061
নীর	-2062
ব্র	-2063
ীয়	-2064
ুনে	-2065
▁কঠ	-2066
▁ফল	-2067
▁রৌ	-2068
ভূমি	-2069
▁ছাই	-2070
▁জগৎ	-2071
▁ঝুল	-2072
▁দার	-2073
▁বেণ	-2074
▁আজকে	-2075
▁উত্ত	-2076
▁করবে	-2077
▁করিল	-2078
▁খুলি	-2079
▁ছায়	-2080
▁তাকে	-2081
▁দেখো	-2082
▁পেয়	-2083
▁বাধা	-2084
▁মাটি	-2085
▁রঙিন	-2086
▁সপ্ত	-2087
▁সিংহ	-2088
▁করুণা	-2089
▁চলিতে	-2090
▁দৈত্য	-2091
▁নৃত্য	-2092
▁যেয়ো	-2093
▁শত্রু	-2094
▁অভিশাপ	-2095
▁হিন্দু	-2096
!"	-2097
পূ	-2098
▁,	-2099
তান	-2100
পতি	-2101
ল্প	-2102
াজে	-2103
াদে	-2104
▁।।	-2105
▁১৩	-2106
মানে	-2107
ার্থ	-2108
▁চলো	-2109
▁জাম	-2110
▁পুল	-2111
▁বয়	-2112
▁বান	-2113
▁যথা	-2114
▁রঙে	-2115
▁সেন	-2116
নিগ্ধ	-2117
প্রাণ	-2118
▁চুরি	-2119
▁তমাল	-2120
▁ধীরে	-2121
▁বেশি	-2122
▁মুসা	-2123
▁হইবে	-2124
▁ক্ষুধ	-2125
▁দাড়ি	-2126
▁পুষ্প	-2127
▁বিশ্বে	-2128
▁স্বপ্ন	-2129
▁বিদ্রোহ	-2130
খর	-2131
গন	-2132
কাঁ	-2133
খান	-2134
জনী	-2135
জ্ব	-2136
ঠের	-2137
দুর	-2138
ধির	-2139
পরি	-2140
ফের	-2141
রাত	-2142
▁কন	-2143
▁জম	-2144
▁ধু	-2145
জ্জা	-2146
পথিক	-2147
পায়	-2148
শক্ত	-2149
▁করব	-2150
▁বীণ	-2151
▁রহে	-2152
▁কেটে	-2153
▁গাহি	-2154
▁মারে	-2155
▁যাবি	-2156
▁রয়ে	-2157
▁রাখে	-2158
▁হানি	-2159
▁হারা	-2160
▁আশায়	-2161
▁উঠিছে	-2162
▁ত্যাগ	-2163
▁আসিয়া	-2164
▁স্ত্রী	-2165
থির	-2166
াগত	-2167
▁চৈ	-2168
ন্তে	-2169
ালার	-2170
ৃঙ্খ	-2171
▁কপো	-2172
▁গাল	-2173
▁ঝিল	-2174
▁বিভ	-2175
▁ভীম	-2176
▁মণি	-2177
▁রাগ	-2178
▁সম্	-2179
▁স্র	-2180
▁অধিক	-2181
▁লাজে	-2182
▁সাজে	-2183
▁অপরাধ	-2184
▁বিধির	-2185
▁বেঁচে	-2186
▁রাখাল	-2187
▁ভাঙিয়া	-2188
▁স্বাধীন	-2189
'!	-2190
াজি	-2191
ুখে	-2192
▁ঈদ	-2193
▁ঘু	-2194
রূপে	-2195
হ্নি	-2196
িনীর	-2197
▁উৎস	-2198
▁কেশ	-2199
▁ছবি	-2200
▁তীর	-2201
▁পিত	-2202
▁ভেদ	-2203
▁মিন	-2204
▁শুধ	-2205
▁অভিয	-2206
▁ঠেলে	-2207
▁ধ্বনি	-2208
▁শুভ্র	-2209
▁বলিয়া	-2210
▁স্রোতে	-2211
▁ক্ষুদ্র	-2212
▁স্নিগ্ধ	-2213
জী	-2214
ফল	-2215
মত	-2216
ণের	-2217
দাই	-2218
পের	-2219
বেদ	-2220
যুগ	-2221
▁লভ	-2222
নাতে	-2223
ষ্টা	-2224
াতার	-2225
▁আহা	-2226
▁করা	-2227
▁গতি	-2228
▁হাহ	-2229
বিত্র	-2230
▁ইহার	-2231
▁খোদা	-2232
▁বীণা	-2233
▁ব্যা	-2234
▁ভাবি	-2235
▁সম্ম	-2236
▁চুড়ি	-2237
▁দেখতে	-2238
▁পিয়ে	-2239
▁বিরহী	-2240
▁মুখের	-2241
▁শুষ্ক	-2242
▁কান্না	-2243
▁শ্মশান	-2244
▁সাঁঝের	-2245
▁জাগিয়া	-2246
▁দাঁড়ায়ে	-2247
চূ	-2248
থের	-2249
র্থ	-2250
ুঁই	-2251
ুর্	-2252
্তে	-2253
▁ঢল	-2254
▁ধন	-2255
▁পী	-2256
▁বদ	-2257
পানে	-2258
াহান	-2259
▁জাল	-2260
▁বেশ	-2261
▁ভিত	-2262
▁সনে	-2263
ঞ্চিত	-2264
▁অভয়	-2265
▁আলোর	-2266
▁কানে	-2267
▁ঝুরে	-2268
▁তাতে	-2269
▁বালা	-2270
▁বাহু	-2271
▁রঙের	-2272
সুন্দর	-2273
▁অপমান	-2274
▁বসন্ত	-2275
▁ভিখার	-2276
▁শিশুর	-2277
▁সুখের	-2278
▁হয়নি	-2279
▁দৃষ্টি	-2280
▁লুটায়	-2281
▁দুনিয়ায়	-2282
উক	-2283
গু	-2284
ণ্ঠ	-2285
মুখ	-2286
▁উৎ	-2287
▁ওর	-2288
▁টি	-2289
▁বই	-2290
কায়	-2291
ক্ষা	-2292
বাণী	-2293
বেশে	-2294
শিতে	-2295
▁আশে	-2296
▁খান	-2297
▁গর্	-2298
▁চাল	-2299
▁জীব	-2300
▁ঝিম	-2301
▁টলে	-2302
▁তলো	-2303
▁দাস	-2304
▁নবি	-2305
▁মাখ	-2306
▁সখা	-2307
ান্তর	-2308
▁চমকে	-2309
▁জননী	-2310
▁তালে	-2311
▁নারে	-2312
▁নিভে	-2313
▁মহাক	-2314
▁যাঁর	-2315
▁শ্মশ	-2316
▁আড়াল	-2317
▁একাকী	-2318
▁একেলা	-2319
▁গলায়	-2320
▁বাঁধে	-2321
▁বাতায়	-2322
▁আনোয়ার	-2323
▁জড়িয়ে	-2324
▁বুলবুলি	-2325
ংশ	-2326
মহ	-2327
সো	-2328
কথা	-2329
চ্চ	-2330
তুই	-2331
দ্দ	-2332
বিষ	-2333
াদি	-2334
ূলে	-2335
▁পল	-2336
▁বৌ	-2337
কালে	-2338
ক্তে	-2339
ঙ্গি	-2340
ধারী	-2341
ভায়	-2342
র্ণা	-2343
্বেত	-2344
▁কলি	-2345
▁গলা	-2346
▁ঠিক	-2347
▁ঢাক	-2348
▁নিল	-2349
▁পশু	-2350
▁ফুর	-2351
▁মক্	-2352
▁মূর	-2353
▁লয়	-2354
▁হউক	-2355
কিয়া	-2356
ঙ্কার	-2357
পারের	-2358
স্কার	-2359
▁অকার	-2360
▁আমিন	-2361
▁আশার	-2362
▁ইচ্ছ	-2363
▁উঠবে	-2364
▁উদার	-2365
▁ওড়ে	-2366
▁করিব	-2367
▁রবির	-2368
▁সকলে	-2369
▁সকাল	-2370
▁কালের	-2371
▁ছিন্ন	-2372
▁ঝড়ের	-2373
▁দিব্য	-2374
▁দোদুল	-2375
▁বিরাট	-2376
▁ভ্রমর	-2377
▁মাধবী	-2378
▁মায়ার	-2379
▁যাত্রী	-2380
▁অন্ধকার	-2381
▁স্বর্গে	-2382
ুজ	-2383
ুপ	-2384
ট্ট	-2385
তেই	-2386
তোর	-2387
মণি	-2388
ানট	-2389
্রা	-2390
▁এঁ	-2391
▁তি	-2392
▁রচ	-2393
▁লই	-2394
জায়	-2395
ভুবন	-2396
▁এলি	-2397
▁চম্	-2398
▁চিন	-2399
▁তাল	-2400
▁বরণ	-2401
▁বলা	-2402
▁বিঁ	-2403
▁মিট	-2404
▁রাই	-2405
▁রাম	-2406
▁হজর	-2407
শ্যাম	-2408
▁অবির	-2409
▁কণ্ঠ	-2410
▁করলে	-2411
▁কহিল	-2412
▁ছুটি	-2413
▁জানো	-2414
▁ধরণী	-2415
▁বেশে	-2416
▁মহাম	-2417
▁মাগো	-2418
▁মেলে	-2419
▁যাচে	-2420
▁রাধা	-2421
▁রানি	-2422
▁ললাট	-2423
▁সুধা	-2424
▁হৃদি	-2425
▁আমারই	-2426
▁ছেলের	-2427
▁জুড়ে	-2428
▁তুফান	-2429
▁দেখেছ	-2430
▁নিষ্ঠ	-2431
▁বাণীর	-2432
▁বিচার	-2433
▁বিস্ম	-2434
▁বুদ্ধ	-2435
▁শ্বেত	-2436
▁সোহাগ	-2437
▁আঁধারে	-2438
▁পবিত্র	-2439
▁পাতায়	-2440
▁স্বামী	-2441
▁পালিয়ে	-2442
▁পেয়েছি	-2443
▁বিশ্বাস	-2444
কন	-2445
ভৈ	-2446
ঘরে	-2447
চোখ	-2448
াসা	-2449
্নে	-2450
্বি	-2451
▁অত	-2452
▁টে	-2453
▁তপ	-2454
▁রং	-2455
গন্ধ	-2456
জানা	-2457
ত্রে	-2458
মাঝে	-2459
লক্ষ	-2460
সেনা	-2461
▁দ্র	-2462
▁মর্	-2463
ড়ালে	-2464
▁অভিন	-2465
▁চারি	-2466
▁টানি	-2467
▁দুলি	-2468
▁নিরব	-2469
▁বেদন	-2470
▁সমান	-2471
▁আলোকে	-2472
▁কন্যা	-2473
▁করিছে	-2474
▁ধরণীর	-2475
▁পাতার	-2476
▁ভাগ্য	-2477
▁অঞ্জলি	-2478
▁উহাদের	-2479
▁ক্ষুধা	-2480
▁ভরিয়া	-2481
▁মন্দির	-2482
▁যেখানে	-2483
▁বৃন্দাব	-2484
ফ্	-2485
ীণ	-2486
কিল	-2487
কূল	-2488
ছনা	-2489
ভাব	-2490
লতা	-2491
▁উত	-2492
▁মশ	-2493
তীরে	-2494
পাশে	-2495
শিশু	-2496
শ্বর	-2497
ষায়	-2498
হাতে	-2499
াকুল	-2500
▁অধর	-2501
▁আশি	-2502
▁জরা	-2503
▁ডাল	-2504
▁নিঃ	-2505
▁ভূত	-2506
▁অভাব	-2507
▁দয়া	-2508
▁দাদা	-2509
▁পাখা	-2510
▁ভোলে	-2511
▁সাথি	-2512
▁অঙ্গে	-2513
▁চাঁদে	-2514
▁তরঙ্গ	-2515
▁নিজের	-2516
▁নিশ্চ	-2517
▁লজ্জা	-2518
▁স্রোত	-2519
▁অবহেলা	-2520
▁আল্লাহ	-2521
▁এসেছিল	-2522
▁ধুলায়	-2523
▁নারায়	-2524
▁নিবিড়	-2525
▁নিরবধি	-2526
▁ব্যর্থ	-2527
▁মাথায়	-2528
▁তলোয়ার	-2529
▁দুয়ারে	-2530
▁নিষ্ঠুর	-2531
ঘা	-2532
ঢ়	-2533
ুদ	-2534
ংসা	-2535
ঝুম	-2536
তরে	-2537
তীর	-2538
নাম	-2539
মুন	-2540
মেঘ	-2541
লির	-2542
াগে	-2543
▁অথ	-2544
▁কম	-2545
▁শন	-2546
চেনা	-2547
ভয়ে	-2548
রাতে	-2549
াওয়	-2550
াল্গ	-2551
াহীন	-2552
্যাঁ	-2553
▁আসল	-2554
▁গহন	-2555
▁চোর	-2556
▁তেজ	-2557
▁যেই	-2558
▁যেত	-2559
▁সাক	-2560
কুমার	-2561
মকেতু	-2562
▁জন্য	-2563
▁পরাজ	-2564
▁পুরে	-2565
▁মদিন	-2566
▁যিনি	-2567
▁যোগী	-2568
▁শীতল	-2569
▁গিয়া	-2570
▁গোপনে	-2571
▁তুমিই	-2572
▁লাগিল	-2573
▁সালাম	-2574
▁হিন্দ	-2575
ছায়ানট	-2576
▁অসহায়	-2577
▁কল্যাণ	-2578
▁চাওয়া	-2579
▁তন্দ্র	-2580
▁প্রকাশ	-2581
▁মন্ত্র	-2582
ছা	-2583
ত্ব	-2584
নদী	-2585
পরে	-2586
মরা	-2587
লেন	-2588
▁আদ	-2589
▁নই	-2590
▁নট	-2591
▁রথ	-2592
ঙ্গল	-2593
টিকা	-2594
লমান	-2595
লাহল	-2596
স্তা	-2597
▁কাঙ	-2598
▁কোল	-2599
▁ছাপ	-2600
▁ঝঞ্	-2601
▁নাও	-2602
▁ভোগ	-2603
▁সতী	-2604
স্ত্র	-2605
▁আঙিন	-2606
▁চক্র	-2607
▁জলের	-2608
▁জ্বল	-2609
▁দানব	-2610
▁নিয়	-2611
▁পিছে	-2612
▁বলতে	-2613
▁বালু	-2614
▁ব্যথ	-2615
▁ভিড়	-2616
▁ভোলা	-2617
▁মাভৈ	-2618
▁শুরু	-2619
▁সবুজ	-2620
▁সেনা	-2621
ওয়ালা	-2622
জ্বালা	-2623
▁আত্মা	-2624
▁কুঞ্জ	-2625
▁নামাজ	-2626
▁নিশান	-2627
▁ফাল্গ	-2628
▁বায়ু	-2629
▁ইন্দ্র	-2630
▁তাহারই	-2631
▁তাহারি	-2632
********	-2633
▁হারায়ে	-2634
▁হেরিয়া	-2635
▁দুনিয়ার	-2636
।]	-2637
চু	-2638
চোর	-2639
দেব	-2640
নীল	-2641
রাই	-2642
শ্ম	-2643
সীর	-2644
াতর	-2645
াবা	-2646
ীতা	-2647
▁তখ	-2648
▁থর	-2649
▁নো	-2650
ন্দা	-2651
াইলে	-2652
াকুর	-2653
ৃতির	-2654
্যাত	-2655
▁খবর	-2656
▁গুন	-2657
▁চুল	-2658
▁টুট	-2659
▁ভাল	-2660
▁মিঞ	-2661
▁রোজ	-2662
▁লতা	-2663
▁লোভ	-2664
াকায়	-2665
▁এমনই	-2666
▁কাজে	-2667
▁ক্ষত	-2668
▁চুমি	-2669
▁তীর্	-2670
▁তেমন	-2671
▁তোরই	-2672
▁দুখে	-2673
▁দেবো	-2674
▁নীড়	-2675
▁পলাশ	-2676
▁ফুটি	-2677
▁ফেলি	-2678
▁বাড়	-2679
▁বাসি	-2680
▁মানি	-2681
▁শোনে	-2682
▁সমীর	-2683
▁হেরো	-2684
▁আসিছে	-2685
▁উদাসী	-2686
▁কথায়	-2687
▁ক্ষীণ	-2688
▁ছাড়ি	-2689
▁জাতির	-2690
▁নির্ম	-2691
▁রক্তে	-2692
▁রৌদ্র	-2693
▁সংসার	-2694
▁অধিকার	-2695
▁কাহারে	-2696
▁কিশোরী	-2697
▁চিরদিন	-2698
▁নয়নের	-2699
▁প্রণাম	-2700
▁প্রাতে	-2701
▁ভিখারি	-2702
▁বেহেশতে	-2703
▁ভুলিয়া	-2704
▁মুসলমান	-2705
▁সৃষ্টির	-2706
▁নৌজোয়ান	-2707
▁মোহাম্মদ	-2708
্জ	-2709
ঙ্ঘ	-2710
মিক	-2711
ম্ম	-2712
র্প	-2713
াসন	-2714
▁কব	-2715
▁জর	-2716
▁নম	-2717
▁রব	-2718
নিকো	-2719
লেখা	-2720
শ্রু	-2721
সায়	-2722
▁উঠি	-2723
▁কিছ	-2724
▁খদি	-2725
▁খাই	-2726
▁খোশ	-2727
▁জুল	-2728
▁ধার	-2729
▁নবী	-2730
▁নভে	-2731
▁পিছ	-2732
▁বছর	-2733
▁বেল	-2734
▁মৃত	-2735
▁সুম	-2736
▁হেন	-2737
▁অতীত	-2738
▁একটা	-2739
▁কঙ্ক	-2740
▁কৃপা	-2741
▁গালি	-2742
▁ছলছল	-2743
▁দেবী	-2744
▁দোলা	-2745
▁পশ্চ	-2746
▁বৃথা	-2747
▁ব্রজ	-2748
▁ভোলো	-2749
▁মদির	-2750
▁মাগে	-2751
▁লজ্জ	-2752
▁শিকল	-2753
▁হয়ত	-2754
▁এনেছি	-2755
▁ঘূর্ণ	-2756
▁ধরিতে	-2757
▁নির্ব	-2758
▁পড়িল	-2759
▁পুড়ে	-2760
▁বলিতে	-2761
▁বহ্নি	-2762
▁ভায়ে	-2763
▁সাঁঝে	-2764
▁জ্বালি	-2765
▁তোমারই	-2766
▁নিমেষে	-2767
▁নিরালা	-2768
▁প্রসাদ	-2769
▁বিরহের	-2770
▁শাখায়	-2771
▁হিয়ার	-2772
________	-2773
▁ধূমকেতু	-2774
▁প্রেমিক	-2775
▁সুন্দরী	-2776
ঘো	-2777
জাগ	-2778
বাঁ	-2779
বাক	-2780
সেন	-2781
হরি	-2782
াজা	-2783
ূপে	-2784
▁ক্	-2785
▁ঘৃ	-2786
ঞ্জন	-2787
মাখা	-2788
মুখে	-2789
স্রো	-2790
হারি	-2791
হারে	-2792
হিণী	-2793
াসনে	-2794
িতাম	-2795
▁খুব	-2796
▁জন্	-2797
▁তরি	-2798
▁নাগ	-2799
▁নাট	-2800
▁বহি	-2801
▁স্থ	-2802
ন্মাদ	-2803
সিয়া	-2804
ান্তি	-2805
ৃঙ্খল	-2806
▁কুড়	-2807
▁গুলি	-2808
▁গোলা	-2809
▁ঘাটে	-2810
▁চেনা	-2811
▁তাহে	-2812
▁তোমা	-2813
▁দিবে	-2814
▁দিল্	-2815
▁বাবা	-2816
▁মেখে	-2817
▁হজরত	-2818
▁অত্যা	-2819
▁কেঁপে	-2820
▁গ্রাস	-2821
▁চন্দন	-2822
▁তারাই	-2823
▁তারার	-2824
▁দিয়ো	-2825
▁ময়ূর	-2826
▁মাভৈঃ	-2827
▁শ্বাস	-2828
▁সুরভি	-2829
▁অভিযান	-2830
▁দেবতার	-2831
▁নেশায়	-2832
▁বালিকা	-2833
▁অবেলায়	-2834
▁অত্যাচার	-2835
▁করিয়াছে	-2836
আন	-2837
কমল	-2838
ছেন	-2839
ণীর	-2840
ভরে	-2841
মুক	-2842
সাব	-2843
াহি	-2844
▁উল	-2845
▁খর	-2846
▁গৌ	-2847
▁চর	-2848
▁তন	-2849
▁লু	-2850
▁শী	-2851
ক্ষি	-2852
ক্ষু	-2853
ঘাতে	-2854
্ত্র	-2855
▁অটল	-2856
▁গড়	-2857
▁ধরো	-2858
▁বল্	-2859
▁বুল	-2860
▁শরম	-2861
▁হুঁ	-2862
জ্ঞান	-2863
লোকের	-2864
▁আলতা	-2865
▁ঈদের	-2866
▁কর্ম	-2867
▁খেতে	-2868
▁গাঁথ	-2869
▁ঘুমে	-2870
▁চকোর	-2871
▁চুপে	-2872
▁দিবস	-2873
▁দিবা	-2874
▁নিলে	-2875
▁পড়ল	-2876
▁পাঁচ	-2877
▁পাথর	-2878
▁বোলে	-2879
▁মাকে	-2880
▁মুছে	-2881
▁শঙ্খ	-2882
▁স্বর	-2883
সিন্ধু	-2884
▁উল্লা	-2885
▁এনেছে	-2886
▁কিসের	-2887
▁বন্দী	-2888
▁বিধুর	-2889
▁ভোরের	-2890
▁যাবার	-2891
▁কাঁটার	-2892
▁গোধূলি	-2893
▁পড়েছে	-2894
▁প্রণয়	-2895
▁শূন্যে	-2896
▁ক্ষুধার	-2897
▁বন্দিনী	-2898
▁বেদনায়	-2899
▁ব্যাকুল	-2900
▁লুকায়ে	-2901
▁হাহাকার	-2902
তাশ	-2903
ফির	-2904
ম্ভ	-2905
লিল	-2906
ুরা	-2907
ৎস্	-2908
▁অচ	-2909
▁আফ	-2910
▁আভ	-2911
▁উথ	-2912
▁তক	-2913
▁নহ	-2914
▁বং	-2915
তালি	-2916
পীড়	-2917
রাজি	-2918
▁আসন	-2919
▁উদ্	-2920
▁উল্	-2921
▁একী	-2922
▁কচি	-2923
▁তাম	-2924
▁পলে	-2925
▁পুঁ	-2926
▁বসন	-2927
▁বাঙ	-2928
▁মুছ	-2929
▁মৌন	-2930
▁রেক	-2931
▁সখী	-2932
▁স্প	-2933
ছায়া	-2934
ঞ্জরে	-2935
ভিক্ষ	-2936
মুক্ত	-2937
▁অক্ষ	-2938
▁আঙুর	-2939
▁ইঙ্গ	-2940
▁খালি	-2941
▁গঙ্গ	-2942
▁তিলে	-2943
▁পরিচ	-2944
▁পাখী	-2945
▁বোঝে	-2946
▁মহান	-2947
▁শহীদ	-2948
▁শিখা	-2949
▁শিয়	-2950
▁শোন্	-2951
▁কন্ঠে	-2952
▁কিয়া	-2953
▁খুশির	-2954
▁জ্বলি	-2955
▁দিলাম	-2956
▁ধ্বংস	-2957
▁বাঁকা	-2958
▁বাজাও	-2959
▁রিক্ত	-2960
▁ললাটে	-2961
▁স্মরণ	-2962
▁স্মরি	-2963
▁হত্যা	-2964
▁জ্বালো	-2965
▁দুর্বল	-2966
▁দেখিবে	-2967
▁পাইয়া	-2968
▁বসিয়া	-2969
▁বৃষ্টি	-2970
▁হারায়	-2971
▁ফাল্গুন	-2972
▁বিশ্বের	-2973
▁লুকিয়ে	-2974
আত	-2975
উদ	-2976
যে	-2977
চরে	-2978
তাই	-2979
বধূ	-2980
মরু	-2981
র্ড	-2982
র্শ	-2983
শীর	-2984
াদর	-2985
▁অক	-2986
আঁখি	-2987
গিরি	-2988
জয়ী	-2989
মঞ্জ	-2990
হেলি	-2991
াড়ে	-2992
িমান	-2993
ুয়া	-2994
▁খড়	-2995
▁খাঁ	-2996
▁ঘির	-2997
▁নিশ	-2998
▁পরো	-2999
▁বাগ	-3000
▁বাঘ	-3001
▁রচে	-3002
▁রণে	-3003
▁শাল	-3004
▁শিউ	-3005
▁হবি	-3006
ওয়ার	-3007
ছাড়া	-3008
দেশের	-3009
রাতের	-3010
িল্পী	-3011
▁আসার	-3012
▁করেন	-3013
▁গৌরী	-3014
▁তপ্ত	-3015
▁দিশা	-3016
▁নেশা	-3017
▁পর্ব	-3018
▁বধূর	-3019
▁ভাসে	-3020
▁মিছে	-3021
▁রাশি	-3022
▁ইহারা	-3023
▁এতদিন	-3024
▁কাঁচা	-3025
▁কোরান	-3026
▁চরণের	-3027
▁ঠাকুর	-3028
▁দুখের	-3029
▁পাপের	-3030
▁পূজার	-3031
▁ফেরেশ	-3032
▁বিজলি	-3033
▁বিলাস	-3034
▁বুঝবে	-3035
▁মহিমা	-3036
▁রহিবে	-3037
▁কোরাস্	-3038
▁ক্ষণিক	-3039
▁চিরতরে	-3040
▁মহাকাল	-3041
▁মিষ্টি	-3042
▁লেগেছে	-3043
▁জ্যোৎস্	-3044
▁খুঁজিয়া	-3045
▁জয়ধ্বনি	-3046
▁বাঁধিয়া	-3047
▁ভালোবাসি	-3048
----------------	-3049
ঘর	-3050
টক	-3051
দৌ	-3052
ধর	-3053
মদ	-3054
সব	-3055
ুত	-3056
চরণ	-3057
তাপ	-3058
লাজ	-3059
স্র	-3060
াদু	-3061
্বা	-3062
▁অহ	-3063
▁ইর	-3064
▁পৌ	-3065
▁রও	-3066
▁রত	-3067
ঁড়া	-3068
ংকার	-3069
ঙ্কর	-3070
পাখা	-3071
পুরে	-3072
বুকে	-3073
ীর্ঘ	-3074
▁অতল	-3075
▁আসব	-3076
▁আহত	-3077
▁কতই	-3078
▁কির	-3079
▁খাও	-3080
▁গুঁ	-3081
▁দলি	-3082
▁বরষ	-3083
▁বাই	-3084
▁শাপ	-3085
▁শিখ	-3086
▁সাব	-3087
▁সিঁ	-3088
▁হেঁ	-3089
▁হোর	-3090
দ্বার	-3091
রিয়া	-3092
াঁদের	-3093
্লানি	-3094
▁উচ্চ	-3095
▁কপোল	-3096
▁কেশে	-3097
▁চণ্ড	-3098
▁চলতে	-3099
▁ঝলমল	-3100
▁টেনে	-3101
▁দেহে	-3102
▁নেবে	-3103
▁ফেটে	-3104
▁বংশী	-3105
▁মাতৃ	-3106
▁মেলা	-3107
▁রোদন	-3108
▁লোভে	-3109
▁হেলা	-3110
▁কিছুই	-3111
▁কেবলই	-3112
▁ক্ষয়	-3113
▁তারেই	-3114
▁পাতাল	-3115
▁প্রবল	-3116
▁বাঁশী	-3117
▁বিষাদ	-3118
▁যথায়	-3119
▁লোকের	-3120
▁শ্রাব	-3121
▁সঙ্গে	-3122
▁সাগরে	-3123
▁হারাম	-3124
▁মেয়ের	-3125
▁লুকায়	-3126
▁সত্যের	-3127
▁সন্তান	-3128
▁হারানো	-3129
▁দেখিয়া	-3130
▁নারায়ণ	-3131
▁শ্মশানে	-3132
▁হৃদয়ের	-3133
▁পৃথিবীতে	-3134
ধন	-3135
রস	-3136
ঘ্য	-3137
দিক	-3138
নয়	-3139
ন্ড	-3140
মোহ	-3141
র্ব	-3142
শয়	-3143
াক্	-3144
াগল	-3145
াণি	-3146
▁অগ	-3147
▁আক	-3148
▁ডো	-3149
▁বউ	-3150
▁যশ	-3151
▁সূ	-3152
দায়	-3153
নীরে	-3154
পিয়	-3155
বনের	-3156
ভাঙা	-3157
য়াল	-3158
ালয়	-3159
ুক্ষ	-3160
▁আন্	-3161
▁চরা	-3162
▁চাত	-3163
▁ঝুর	-3164
▁তিন	-3165
▁তিল	-3166
▁দুধ	-3167
▁দোষ	-3168
▁বিছ	-3169
▁বিন	-3170
▁মাস	-3171
▁রইল	-3172
▁রুম	-3173
▁শপথ	-3174
ছিলাম	-3175
বিহীন	-3176
র্দার	-3177
▁আজান	-3178
▁আশিস	-3179
▁কন্ঠ	-3180
▁কাটে	-3181
▁ছোটে	-3182
▁ডাগর	-3183
▁তাজা	-3184
▁ধারা	-3185
▁ধারে	-3186
▁প্রজ	-3187
▁প্রহ	-3188
▁বদ্ধ	-3189
▁বাকি	-3190
▁বোঝা	-3191
▁মধ্য	-3192
▁মাখা	-3193
▁মূর্	-3194
▁লাঞ্	-3195
▁লেফ্	-3196
▁শতদল	-3197
▁সঞ্চ	-3198
▁সয়ে	-3199
▁সুরা	-3200
▁হাড়	-3201
জ্জ্বল	-3202
প্রদীপ	-3203
▁অনাগত	-3204
▁উহারা	-3205
▁কাননে	-3206
▁কাবার	-3207
▁কেড়ে	-3208
▁চক্ষে	-3209
▁ঠোঁটে	-3210
▁দীর্ঘ	-3211
▁নাইকো	-3212
▁ভারতে	-3213
▁মিনতি	-3214
▁সংহার	-3215
▁অনুরাগ	-3216
▁বাঁশরি	-3217
▁বাদশাহ	-3218
▁ভারতের	-3219
▁যেথায়	-3220
▁শয়তান	-3221
▁শিল্পী	-3222
▁আল্লাহ্	-3223
▁পড়িয়া	-3224
▁পৃথিবীর	-3225
টন	-3226
ঢল	-3227
ফি	-3228
বং	-3229
▁৩	-3230
কলি	-3231
ধেক	-3232
ন্ঠ	-3233
ভুল	-3234
যোগ	-3235
ষেধ	-3236
্রি	-3237
▁আই	-3238
▁খা	-3239
▁ঝল	-3240
খানা	-3241
টিনী	-3242
প্রে	-3243
সত্য	-3244
াতের	-3245
ুকের	-3246
▁অমৃ	-3247
▁অসু	-3248
▁গুণ	-3249
▁গোল	-3250
▁গৌর	-3251
▁তৃষ	-3252
▁নমো	-3253
▁নাথ	-3254
▁পূর	-3255
▁যাস	-3256
▁লিখ	-3257
▁সন্	-3258
▁সরে	-3259
শ্রয়	-3260
াহানি	-3261
ুঁড়ি	-3262
▁উচ্ছ	-3263
▁করছে	-3264
▁কারও	-3265
▁কারো	-3266
▁খোকা	-3267
▁ঘোরে	-3268
▁চেপে	-3269
▁জেনে	-3270
▁ডালে	-3271
▁ধায়	-3272
▁ধেনু	-3273
▁বলিব	-3274
▁বিহগ	-3275
▁ভাঙে	-3276
▁ভাসি	-3277
▁ভৈরব	-3278
▁মন্থ	-3279
▁মিঞা	-3280
▁রহিল	-3281
▁সদাই	-3282
▁হরিণ	-3283
▁হিংস	-3284
▁হেনে	-3285
চাওয়া	-3286
বিহারী	-3287
▁অতিথি	-3288
▁কাঁকন	-3289
▁কারুর	-3290
▁কোকিল	-3291
▁ঘনায়	-3292
▁ছন্দে	-3293
▁জিজ্ঞ	-3294
▁তাঁরে	-3295
▁দেহের	-3296
▁বন্যা	-3297
▁বাড়ি	-3298
▁মাথার	-3299
▁রুদ্ধ	-3300
▁সাড়া	-3301
▁অর্ঘ্য	-3302
▁জেগেছে	-3303
▁নাটকের	-3304
▁পড়িবে	-3305
▁পরিচয়	-3306
▁বন্দনা	-3307
▁ভুলিতে	-3308
▁মসজিদে	-3309
▁যাহারে	-3310
▁রেকর্ড	-3311
▁কোনোদিন	-3312
▁মন্দিরে	-3313
▁মুসাফির	-3314
▁হাসিয়া	-3315
▁হানাহানি	-3316
এই	-3317
ত্	-3318
মৃ	-3319
হত	-3320
▁ষ	-3321
টাও	-3322
ঠুর	-3323
ধনু	-3324
শোক	-3325
সান	-3326
হাস	-3327
হিদ	-3328
িকি	-3329
ুকা	-3330
▁উছ	-3331
▁ফি	-3332
▁মউ	-3333
▁য়	-3334
▁লও	-3335
ক্ষী	-3336
চক্র	-3337
তারে	-3338
বন্ধ	-3339
বানি	-3340
রায়	-3341
স্তে	-3342
স্যা	-3343
ৎকার	-3344
▁আঁক	-3345
▁আঁখ	-3346
▁এবং	-3347
▁কেত	-3348
▁খ্য	-3349
▁গরব	-3350
▁গরি	-3351
▁চিক	-3352
▁তরণ	-3353
▁তুষ	-3354
▁দাহ	-3355
▁নহি	-3356
▁পতি	-3357
▁পোহ	-3358
▁ফোঁ	-3359
▁বের	-3360
▁মুল	-3361
▁যাচ	-3362
▁সমা	-3363
▁সমু	-3364
▁সিন	-3365
▁হীন	-3366
কিশোর	-3367
পায়ে	-3368
শক্তি	-3369
▁অথবা	-3370
▁আরতি	-3371
▁কঠোর	-3372
▁কথার	-3373
▁কাদা	-3374
▁কাবা	-3375
▁খেলি	-3376
▁জুড়	-3377
▁টাকা	-3378
▁তৃষা	-3379
▁দিলি	-3380
▁দুটো	-3381
▁বালক	-3382
▁ভাঙি	-3383
▁মহাপ	-3384
▁মাখি	-3385
▁যমুন	-3386
▁লঙ্ঘ	-3387
▁লোভী	-3388
▁শাখা	-3389
শ্বাসে	-3390
▁অঞ্চল	-3391
▁অভিনব	-3392
▁কায়া	-3393
▁কারাগ	-3394
▁কুমার	-3395
▁ক্রমে	-3396
▁ছিলাম	-3397
▁দারুণ	-3398
▁প্রাস	-3399
▁বাহুর	-3400
▁বিধান	-3401
▁বিষাণ	-3402
▁সৈন্য	-3403
▁হতভাগ	-3404
লক্ষ্মী	-3405
▁উদাসীন	-3406
▁কুঁড়ি	-3407
▁গ্লানি	-3408
▁চাহিতে	-3409
▁বন্ধুর	-3410
▁সাগরের	-3411
▁হাসিতে	-3412
▁অভিমানী	-3413
▁উল্লাসে	-3414
▁দিয়াছে	-3415
▁দিয়েছে	-3416
▁প্রার্থ	-3417
▁শাস্ত্র	-3418
▁স্বপ্নে	-3419
▁স্মৃতির	-3420
▁অন্ধকারে	-3421
▁সুন্দরের	-3422
▁দাঁড়িয়ে	-3423
আম	-3424
জম	-3425
নন	-3426
গনে	-3427
বলি	-3428
বাণ	-3429
রিদ	-3430
হুর	-3431
হের	-3432
াইল	-3433
াবল	-3434
ীরা	-3435
▁উঁ	-3436
▁গত	-3437
▁মথ	-3438
....	-3439
আমার	-3440
ঙ্কে	-3441
জনের	-3442
তালা	-3443
বেদন	-3444
ভোলা	-3445
ল্লি	-3446
সারে	-3447
াঁদে	-3448
ুকুর	-3449
▁আধো	-3450
▁গোঁ	-3451
▁তোল	-3452
▁দাগ	-3453
▁দেন	-3454
▁ধর্	-3455
▁নরক	-3456
▁নিক	-3457
▁পরী	-3458
▁ভগব	-3459
▁মনো	-3460
▁যতই	-3461
▁রচি	-3462
▁শাঁ	-3463
ওয়াজ	-3464
বিষের	-3465
বিষ্য	-3466
ব্যথা	-3467
মেয়ে	-3468
▁অত্য	-3469
▁আদেশ	-3470
▁আমিও	-3471
▁কখনো	-3472
▁করার	-3473
▁কল্প	-3474
▁কালা	-3475
▁গাছে	-3476
▁চড়ে	-3477
▁তরুর	-3478
▁নন্দ	-3479
▁নিম্	-3480
▁নেতা	-3481
▁ভাঙো	-3482
▁মর্ম	-3483
▁মস্ত	-3484
▁মেনে	-3485
▁রেখা	-3486
▁শোকে	-3487
▁শোনা	-3488
▁হস্ত	-3489
ান্তরে	-3490
▁অবিরল	-3491
▁কাফের	-3492
▁চম্পা	-3493
▁জন্মে	-3494
▁তারপর	-3495
▁দখিনা	-3496
▁দিলেন	-3497
▁দুর্ব	-3498
▁দুলাল	-3499
▁দেখলে	-3500
▁পল্লব	-3501
▁ফাঁকি	-3502
▁বাঁধি	-3503
▁বিরহে	-3504
▁বৃদ্ধ	-3505
▁মাতাল	-3506
▁শীতের	-3507
▁শুকনো	-3508
▁সাম্য	-3509
▁সুনীল	-3510
▁হিংসা	-3511
▁অস্ত্র	-3512
▁আশ্রয়	-3513
▁ছোঁয়া	-3514
▁জানিতে	-3515
▁ধ্যানে	-3516
▁প্রীতি	-3517
▁বাঁশির	-3518
▁বাজিছে	-3519
▁বিধাতা	-3520
▁বুঝিবে	-3521
▁বেড়াই	-3522
▁ব্যথিত	-3523
▁মানুষে	-3524
▁মিলনের	-3525
▁শক্তির	-3526
▁স্বর্ণ	-3527
▁আঙিনায়	-3528
▁কোরাস্ঃ	-3529
▁ঘুমায়ে	-3530
▁ছড়ায়ে	-3531
▁পেয়ালা	-3532
▁বাজায়ে	-3533
▁বেহেশ্ত	-3534
▁ভাসিয়া	-3535
▁লাগিয়া	-3536
▁বিদায়ের	-3537
▁বিদ্রোহী	-3538
▁স্বর্গের	-3539
▁জ্যোতির্ম	-3540
▁ভালোবাসার	-3541
চক	-3542
ঝি	-3543
ফা	-3544
বস	-3545
শর	-3546
সং	-3547
ওরে	-3548
ছিত	-3549
ছিস	-3550
ছের	-3551
দূত	-3552
ধান	-3553
বাত	-3554
মোর	-3555
ম্প	-3556
সাধ	-3557
াপা	-3558
ামি	-3559
ুকে	-3560
▁--	-3561
▁বগ	-3562
কাশে	-3563
গায়	-3564
ন্নত	-3565
ষ্ণু	-3566
সাগর	-3567
িতেছ	-3568
ুকুম	-3569
ুদ্ধ	-3570
▁...	-3571
▁অলস	-3572
▁উতল	-3573
▁উপর	-3574
▁ওলো	-3575
▁গজল	-3576
▁জমা	-3577
▁তাও	-3578
▁তাথ	-3579
▁পবন	-3580
▁পিউ	-3581
▁পুব	-3582
▁মেষ	-3583
জিয়া	-3584
ামিনী	-3585
▁উজান	-3586
▁ক্রো	-3587
▁খুশি	-3588
▁খোলে	-3589
▁ছিনু	-3590
▁জনগণ	-3591
▁তাপস	-3592
▁তোলে	-3593
▁দানি	-3594
▁দিনু	-3595
▁নবির	-3596
▁নেয়	-3597
▁পাপী	-3598
▁বাঁদ	-3599
▁বাসর	-3600
▁বিঁধ	-3601
▁ভরসা	-3602
▁মর্ত	-3603
▁মহিষ	-3604
▁মিলে	-3605
▁মুহু	-3606
▁রইবে	-3607
▁রজনী	-3608
▁রসুল	-3609
▁রাগে	-3610
▁লুটে	-3611
▁শাখে	-3612
▁শিখী	-3613
কল্যাণ	-3614
প্রিয়	-3615
▁আমারি	-3616
▁আরবের	-3617
▁আসমান	-3618
▁কাঁধে	-3619
▁কাঁহা	-3620
▁ক্ষতি	-3621
▁গঙ্গা	-3622
▁জাগিল	-3623
▁ঝরিছে	-3624
▁দূরের	-3625
▁নন্দন	-3626
▁নিঠুর	-3627
▁ভুবনে	-3628
▁শুদ্ধ	-3629
▁অকারণে	-3630
▁উঠেছিল	-3631
▁কুমারী	-3632
▁ধেয়ান	-3633
▁নিজেরে	-3634
▁প্রজাপ	-3635
▁ভবিষ্য	-3636
▁রয়েছে	-3637
▁সন্ন্য	-3638
▁স্রষ্ট	-3639
▁আল্লাহর	-3640
▁ক্লান্ত	-3641
▁ক্ষুধিত	-3642
▁খুলিয়া	-3643
▁ঘুমিয়ে	-3644
▁তুলিয়া	-3645
▁মায়ায়	-3646
▁হাতুড়ি	-3647
▁কাঁপিয়া	-3648
বক	-3649
িস	-3650
ুঝ	-3651
কাম	-3652
ঘির	-3653
ছোঁ	-3654
জাত	-3655
টাই	-3656
তরু	-3657
নাথ	-3658
ব্দ	-3659
রবে	-3660
হ্ন	-3661
ুতে	-3662
▁গি	-3663
▁তল	-3664
▁থু	-3665
▁সত	-3666
তুমি	-3667
বর্ত	-3668
বীথি	-3669
লাতে	-3670
লাসী	-3671
শিরে	-3672
▁আরে	-3673
▁কিন	-3674
▁ঢের	-3675
▁দাদ	-3676
▁দোজ	-3677
▁ধ্র	-3678
▁নাক	-3679
▁বরা	-3680
▁বরি	-3681
▁বিক	-3682
▁বেহ	-3683
▁ভোল	-3684
▁রিম	-3685
▁লাব	-3686
▁সবই	-3687
▁হেজ	-3688
▁হেম	-3689
ঞ্চলে	-3690
দুলাল	-3691
বন্ধু	-3692
্যোতি	-3693
▁অধীর	-3694
▁আসছে	-3695
▁উপরে	-3696
▁কয়ে	-3697
▁কায়	-3698
▁কালী	-3699
▁কিরণ	-3700
▁গলার	-3701
▁গালে	-3702
▁চিতা	-3703
▁চিনে	-3704
▁জনমে	-3705
▁জ্বে	-3706
▁তনুর	-3707
▁থরথর	-3708
▁থাকো	-3709
▁দগ্ধ	-3710
▁দিবি	-3711
▁দেরি	-3712
▁দ্বি	-3713
▁পাছে	-3714
▁পাবি	-3715
▁ফকির	-3716
▁বাসা	-3717
▁বাহি	-3718
▁রোজা	-3719
▁লাগল	-3720
▁শ্রে	-3721
▁সলিল	-3722
▁সাহে	-3723
▁স্তব	-3724
প্রায়	-3725
▁আনমনে	-3726
▁একদিন	-3727
▁কারার	-3728
▁ঘুমের	-3729
▁চলেছি	-3730
▁চুম্ব	-3731
▁জননীর	-3732
▁দেখিল	-3733
▁দেয়া	-3734
▁নীরবে	-3735
▁পড়বে	-3736
▁পাখির	-3737
▁পাথার	-3738
▁প্রতী	-3739
▁বাইরে	-3740
▁ভৈরবী	-3741
▁যাত্র	-3742
▁শুয়ে	-3743
▁সাহার	-3744
▁হাফিজ	-3745
▁অশ্রুর	-3746
▁উন্মাদ	-3747
▁ডাকিছে	-3748
▁তারায়	-3749
▁দিগ্বি	-3750
▁দোলায়	-3751
▁যাওয়া	-3752
▁শুকায়	-3753
▁শ্রাবণ	-3754
▁সেখানে	-3755
▁বাতায়ন	-3756
▁ভাবিয়া	-3757
▁লুটায়ে	-3758
▁হিয়ায়	-3759
▁প্রান্তর	-3760
▁সর্বনাশী	-3761
▁প্রার্থনা	-3762
)।	-3763
গি	-3764
টর	-3765
প্	-3766
বৈ	-3767
াউ	-3768
ংবা	-3769
অভি	-3770
করা	-3771
গার	-3772
গুন	-3773
ধাম	-3774
বেষ	-3775
ব্ধ	-3776
হাত	-3777
ুড়	-3778
ুদ্	-3779
্বী	-3780
▁ঝো	-3781
▁তস	-3782
▁নু	-3783
পথের	-3784
বায়	-3785
মূলে	-3786
লিলে	-3787
্বনা	-3788
▁আরশ	-3789
▁ইতি	-3790
▁একি	-3791
▁ওকি	-3792
▁করল	-3793
▁কুর	-3794
▁ঢুল	-3795
▁দূত	-3796
▁নেব	-3797
▁প্য	-3798
▁ভাঁ	-3799
▁মোছ	-3800
▁রোদ	-3801
▁শাহ	-3802
▁১৩৩	-3803
ঞ্জির	-3804
য়োজন	-3805
▁অধরে	-3806
▁অভাগ	-3807
▁আপনা	-3808
▁কঠিন	-3809
▁কর্ত	-3810
▁ক্লে	-3811
▁চমকি	-3812
▁ডালি	-3813
▁ঢাকা	-3814
▁দেউল	-3815
▁পরাধ	-3816
▁পলাত	-3817
▁পার্	-3818
▁বঙ্গ	-3819
▁বণিক	-3820
▁বেজে	-3821
▁ভগ্ন	-3822
▁মাঝি	-3823
▁রেখো	-3824
▁শস্য	-3825
▁সারি	-3826
▁সুখী	-3827
চন্দ্র	-3828
ত্তালি	-3829
ধারায়	-3830
▁অজানা	-3831
▁আঁচলে	-3832
▁আবেশে	-3833
▁আমিনা	-3834
▁আসিনি	-3835
▁কিংবা	-3836
▁গুঞ্জ	-3837
▁চাঁপা	-3838
▁জুড়ি	-3839
▁জোছনা	-3840
▁দক্ষি	-3841
▁ধানের	-3842
▁নিতুই	-3843
▁পাইবে	-3844
▁বাংলা	-3845
▁মঙ্গল	-3846
▁মালার	-3847
▁রহস্য	-3848
▁সুবাস	-3849
▁আগুনের	-3850
▁ঊর্ধ্ব	-3851
▁এতদিনে	-3852
▁কুঞ্জে	-3853
▁খেলিতে	-3854
▁জাগায়	-3855
▁দেওয়া	-3856
▁দ্বন্দ	-3857
▁বেলায়	-3858
▁লেফ্ট্	-3859
▁কাঁদায়	-3860
▁কোরবানি	-3861
▁ছড়িয়ে	-3862
▁তন্দ্রা	-3863
▁থাকিয়া	-3864
▁নিশ্চয়	-3865
▁পারায়ে	-3866
▁পেয়েছে	-3867
▁ফেরেশতা	-3868
▁লজ্জায়	-3869
▁লুটিয়ে	-3870
▁স্নেহের	-3871
▁আসিয়াছি	-3872
▁বারেবারে	-3873
▁মুত্তালি	-3874
-'	-3875
আজ	-3876
আস	-3877
ফো	-3878
মৌ	-3879
রব	-3880
উলে	-3881
ওগো	-3882
চির	-3883
তাল	-3884
থিল	-3885
দম্	-3886
ভ্র	-3887
য্য	-3888
লান	-3889
লোল	-3890
হাদ	-3891
োধন	-3892
▁অদ	-3893
▁চত	-3894
▁জট	-3895
▁নভ	-3896
কুলে	-3897
ক্ষণ	-3898
গুলো	-3899
ঞ্জর	-3900
দেবী	-3901
দেশি	-3902
প্রভ	-3903
বেগে	-3904
মলিন	-3905
মাছি	-3906
ম্বর	-3907
শাখী	-3908
শ্বে	-3909
স্তর	-3910
ালির	-3911
িমের	-3912
ুমতী	-3913
▁অরণ	-3914
▁আরও	-3915
▁ওড়	-3916
▁কলস	-3917
▁	-3918
া	-3919
ে	-3920
র	-3921
ি	-3922
ন	-3923
য	-3924
্	-3925
ব	-3926
ত	-3927
ল	-3928
ক	-3929
ম	-3930
ু	-3931
়	-3932
স	-3933
দ	-3934
ো	-3935
প	-3936
হ	-3937
,	-3938
-	-3939
আ	-3940
জ	-3941
গ	-3942
শ	-3943
ী	-3944
ই	-3945
।	-3946
খ	-3947
চ	-3948
ছ	-3949
ভ	-3950
ধ	-3951
ঁ	-3952
ড	-3953
এ	-3954
থ	-3955
!	-3956
ণ	-3957
ও	-3958
ট	-3959
অ	-3960
ষ	-3961
'	-3962
ফ	-3963
ূ	-3964
উ	-3965
ঘ	-3966
॥	-3967
ঙ	-3968
ঝ	-3969
ৃ	-3970
ঠ	-3971
?	-3972
ঞ	-3973
ং	-3974
ৎ	-3975
ৈ	-3976
ৌ	-3977
)	-3978
(	-3979
ঢ	-3980
ঐ	-3981
;	-3982
.	-3983
ঃ	-3984
[	-3985
]	-3986
"	-3987
*	-3988
_	-3989
ঈ	-3990
ঊ	-3991
১	-3992
:	-3993
৩	-3994
